DEPTH = 72;
WIDTH = 1;
ADDRESS_RADIX = UNS;
DATA_RADIX = BIN;
CONTENT BEGIN
  0 : 1;
  1 : 0;
  2 : 1;
  3 : 1;
  4 : 0;
  5 : 1;
  6 : 1;
  7 : 0;
  8 : 0;
  9 : 0;
  10 : 0;
  11 : 1;
  12 : 1;
  13 : 1;
  14 : 0;
  15 : 1;
  16 : 1;
  17 : 1;
  18 : 0;
  19 : 0;
  20 : 0;
  21 : 1;
  22 : 0;
  23 : 0;
  24 : 0;
  25 : 0;
  26 : 1;
  27 : 1;
  28 : 0;
  29 : 0;
  30 : 0;
  31 : 1;
  32 : 0;
  33 : 0;
  34 : 0;
  35 : 0;
  36 : 1;
  37 : 1;
  38 : 0;
  39 : 0;
  40 : 0;
  41 : 0;
  42 : 0;
  43 : 0;
  44 : 0;
  45 : 1;
  46 : 1;
  47 : 1;
  48 : 1;
  49 : 1;
  50 : 1;
  51 : 0;
  52 : 0;
  53 : 0;
  54 : 0;
  55 : 0;
  56 : 0;
  57 : 1;
  58 : 1;
  59 : 0;
  60 : 0;
  61 : 1;
  62 : 0;
  63 : 1;
  64 : 0;
  65 : 0;
  66 : 1;
  67 : 1;
  68 : 1;
  69 : 1;
  70 : 0;
  71 : 0;
END;
