DEPTH = 1152;
WIDTH = 1;
ADDRESS_RADIX = UNS;
DATA_RADIX = BIN;
CONTENT BEGIN
  0 : 1;
  1 : 0;
  2 : 0;
  3 : 1;
  4 : 1;
  5 : 1;
  6 : 0;
  7 : 0;
  8 : 1;
  9 : 1;
  10 : 0;
  11 : 0;
  12 : 1;
  13 : 1;
  14 : 0;
  15 : 0;
  16 : 1;
  17 : 0;
  18 : 0;
  19 : 1;
  20 : 1;
  21 : 0;
  22 : 1;
  23 : 0;
  24 : 0;
  25 : 0;
  26 : 0;
  27 : 1;
  28 : 0;
  29 : 1;
  30 : 0;
  31 : 0;
  32 : 1;
  33 : 1;
  34 : 0;
  35 : 1;
  36 : 0;
  37 : 0;
  38 : 1;
  39 : 1;
  40 : 0;
  41 : 0;
  42 : 0;
  43 : 0;
  44 : 0;
  45 : 1;
  46 : 1;
  47 : 0;
  48 : 1;
  49 : 0;
  50 : 1;
  51 : 0;
  52 : 0;
  53 : 1;
  54 : 1;
  55 : 0;
  56 : 1;
  57 : 1;
  58 : 1;
  59 : 0;
  60 : 0;
  61 : 0;
  62 : 1;
  63 : 0;
  64 : 1;
  65 : 0;
  66 : 0;
  67 : 1;
  68 : 1;
  69 : 1;
  70 : 0;
  71 : 0;
  72 : 1;
  73 : 1;
  74 : 1;
  75 : 0;
  76 : 1;
  77 : 1;
  78 : 1;
  79 : 1;
  80 : 1;
  81 : 0;
  82 : 1;
  83 : 1;
  84 : 1;
  85 : 0;
  86 : 1;
  87 : 0;
  88 : 0;
  89 : 1;
  90 : 0;
  91 : 1;
  92 : 1;
  93 : 1;
  94 : 1;
  95 : 1;
  96 : 1;
  97 : 1;
  98 : 0;
  99 : 0;
  100 : 0;
  101 : 1;
  102 : 0;
  103 : 0;
  104 : 1;
  105 : 0;
  106 : 1;
  107 : 1;
  108 : 1;
  109 : 0;
  110 : 1;
  111 : 0;
  112 : 0;
  113 : 0;
  114 : 1;
  115 : 1;
  116 : 1;
  117 : 0;
  118 : 1;
  119 : 1;
  120 : 1;
  121 : 0;
  122 : 0;
  123 : 0;
  124 : 1;
  125 : 1;
  126 : 0;
  127 : 0;
  128 : 0;
  129 : 0;
  130 : 1;
  131 : 0;
  132 : 0;
  133 : 1;
  134 : 0;
  135 : 0;
  136 : 1;
  137 : 1;
  138 : 1;
  139 : 1;
  140 : 0;
  141 : 0;
  142 : 1;
  143 : 0;
  144 : 0;
  145 : 1;
  146 : 0;
  147 : 1;
  148 : 1;
  149 : 1;
  150 : 0;
  151 : 0;
  152 : 1;
  153 : 0;
  154 : 1;
  155 : 1;
  156 : 1;
  157 : 0;
  158 : 1;
  159 : 0;
  160 : 0;
  161 : 0;
  162 : 1;
  163 : 0;
  164 : 0;
  165 : 1;
  166 : 1;
  167 : 0;
  168 : 0;
  169 : 1;
  170 : 0;
  171 : 0;
  172 : 0;
  173 : 0;
  174 : 0;
  175 : 1;
  176 : 1;
  177 : 0;
  178 : 0;
  179 : 1;
  180 : 1;
  181 : 1;
  182 : 1;
  183 : 1;
  184 : 0;
  185 : 1;
  186 : 0;
  187 : 0;
  188 : 0;
  189 : 0;
  190 : 0;
  191 : 0;
  192 : 1;
  193 : 0;
  194 : 0;
  195 : 1;
  196 : 0;
  197 : 0;
  198 : 1;
  199 : 1;
  200 : 1;
  201 : 0;
  202 : 0;
  203 : 1;
  204 : 0;
  205 : 0;
  206 : 1;
  207 : 0;
  208 : 0;
  209 : 1;
  210 : 0;
  211 : 0;
  212 : 0;
  213 : 0;
  214 : 1;
  215 : 0;
  216 : 0;
  217 : 1;
  218 : 0;
  219 : 0;
  220 : 0;
  221 : 1;
  222 : 0;
  223 : 1;
  224 : 0;
  225 : 1;
  226 : 0;
  227 : 1;
  228 : 1;
  229 : 0;
  230 : 0;
  231 : 1;
  232 : 1;
  233 : 1;
  234 : 1;
  235 : 1;
  236 : 1;
  237 : 0;
  238 : 1;
  239 : 0;
  240 : 0;
  241 : 0;
  242 : 0;
  243 : 0;
  244 : 1;
  245 : 1;
  246 : 0;
  247 : 1;
  248 : 1;
  249 : 1;
  250 : 0;
  251 : 0;
  252 : 0;
  253 : 0;
  254 : 0;
  255 : 0;
  256 : 1;
  257 : 1;
  258 : 0;
  259 : 1;
  260 : 1;
  261 : 0;
  262 : 0;
  263 : 1;
  264 : 0;
  265 : 0;
  266 : 1;
  267 : 0;
  268 : 0;
  269 : 0;
  270 : 0;
  271 : 0;
  272 : 1;
  273 : 1;
  274 : 1;
  275 : 1;
  276 : 1;
  277 : 1;
  278 : 0;
  279 : 0;
  280 : 0;
  281 : 0;
  282 : 1;
  283 : 0;
  284 : 0;
  285 : 0;
  286 : 0;
  287 : 1;
  288 : 0;
  289 : 1;
  290 : 0;
  291 : 0;
  292 : 0;
  293 : 1;
  294 : 1;
  295 : 0;
  296 : 0;
  297 : 1;
  298 : 1;
  299 : 1;
  300 : 1;
  301 : 1;
  302 : 0;
  303 : 1;
  304 : 0;
  305 : 1;
  306 : 1;
  307 : 1;
  308 : 1;
  309 : 0;
  310 : 1;
  311 : 1;
  312 : 1;
  313 : 1;
  314 : 1;
  315 : 0;
  316 : 0;
  317 : 1;
  318 : 1;
  319 : 0;
  320 : 1;
  321 : 1;
  322 : 1;
  323 : 1;
  324 : 1;
  325 : 1;
  326 : 0;
  327 : 0;
  328 : 1;
  329 : 0;
  330 : 1;
  331 : 1;
  332 : 1;
  333 : 1;
  334 : 1;
  335 : 0;
  336 : 1;
  337 : 0;
  338 : 0;
  339 : 1;
  340 : 1;
  341 : 0;
  342 : 0;
  343 : 1;
  344 : 0;
  345 : 0;
  346 : 0;
  347 : 1;
  348 : 1;
  349 : 1;
  350 : 0;
  351 : 0;
  352 : 0;
  353 : 1;
  354 : 1;
  355 : 1;
  356 : 1;
  357 : 1;
  358 : 0;
  359 : 0;
  360 : 0;
  361 : 0;
  362 : 1;
  363 : 1;
  364 : 1;
  365 : 0;
  366 : 1;
  367 : 1;
  368 : 1;
  369 : 0;
  370 : 1;
  371 : 1;
  372 : 0;
  373 : 1;
  374 : 1;
  375 : 1;
  376 : 1;
  377 : 1;
  378 : 0;
  379 : 1;
  380 : 0;
  381 : 1;
  382 : 0;
  383 : 1;
  384 : 1;
  385 : 0;
  386 : 1;
  387 : 0;
  388 : 0;
  389 : 1;
  390 : 1;
  391 : 0;
  392 : 0;
  393 : 1;
  394 : 1;
  395 : 0;
  396 : 1;
  397 : 0;
  398 : 1;
  399 : 1;
  400 : 1;
  401 : 1;
  402 : 1;
  403 : 1;
  404 : 0;
  405 : 1;
  406 : 0;
  407 : 1;
  408 : 0;
  409 : 1;
  410 : 0;
  411 : 0;
  412 : 1;
  413 : 1;
  414 : 1;
  415 : 0;
  416 : 1;
  417 : 1;
  418 : 0;
  419 : 0;
  420 : 0;
  421 : 0;
  422 : 0;
  423 : 0;
  424 : 0;
  425 : 1;
  426 : 1;
  427 : 0;
  428 : 0;
  429 : 1;
  430 : 1;
  431 : 0;
  432 : 0;
  433 : 1;
  434 : 1;
  435 : 1;
  436 : 0;
  437 : 1;
  438 : 0;
  439 : 1;
  440 : 1;
  441 : 0;
  442 : 0;
  443 : 0;
  444 : 1;
  445 : 1;
  446 : 0;
  447 : 1;
  448 : 1;
  449 : 0;
  450 : 0;
  451 : 1;
  452 : 0;
  453 : 0;
  454 : 0;
  455 : 0;
  456 : 0;
  457 : 0;
  458 : 1;
  459 : 0;
  460 : 1;
  461 : 0;
  462 : 1;
  463 : 1;
  464 : 1;
  465 : 1;
  466 : 0;
  467 : 0;
  468 : 0;
  469 : 0;
  470 : 0;
  471 : 0;
  472 : 0;
  473 : 1;
  474 : 0;
  475 : 1;
  476 : 0;
  477 : 1;
  478 : 0;
  479 : 1;
  480 : 0;
  481 : 1;
  482 : 1;
  483 : 1;
  484 : 1;
  485 : 1;
  486 : 1;
  487 : 1;
  488 : 1;
  489 : 1;
  490 : 1;
  491 : 0;
  492 : 1;
  493 : 1;
  494 : 0;
  495 : 1;
  496 : 1;
  497 : 1;
  498 : 0;
  499 : 0;
  500 : 0;
  501 : 0;
  502 : 0;
  503 : 1;
  504 : 1;
  505 : 0;
  506 : 1;
  507 : 1;
  508 : 1;
  509 : 0;
  510 : 1;
  511 : 1;
  512 : 1;
  513 : 0;
  514 : 1;
  515 : 0;
  516 : 1;
  517 : 1;
  518 : 1;
  519 : 1;
  520 : 1;
  521 : 1;
  522 : 0;
  523 : 0;
  524 : 1;
  525 : 0;
  526 : 0;
  527 : 1;
  528 : 0;
  529 : 0;
  530 : 1;
  531 : 0;
  532 : 0;
  533 : 0;
  534 : 0;
  535 : 1;
  536 : 1;
  537 : 0;
  538 : 1;
  539 : 0;
  540 : 1;
  541 : 0;
  542 : 1;
  543 : 1;
  544 : 0;
  545 : 0;
  546 : 1;
  547 : 0;
  548 : 0;
  549 : 1;
  550 : 0;
  551 : 0;
  552 : 1;
  553 : 0;
  554 : 1;
  555 : 0;
  556 : 0;
  557 : 0;
  558 : 0;
  559 : 1;
  560 : 0;
  561 : 0;
  562 : 1;
  563 : 1;
  564 : 0;
  565 : 1;
  566 : 0;
  567 : 1;
  568 : 0;
  569 : 1;
  570 : 1;
  571 : 1;
  572 : 1;
  573 : 0;
  574 : 1;
  575 : 0;
  576 : 0;
  577 : 0;
  578 : 1;
  579 : 1;
  580 : 1;
  581 : 0;
  582 : 0;
  583 : 1;
  584 : 0;
  585 : 0;
  586 : 0;
  587 : 0;
  588 : 0;
  589 : 0;
  590 : 1;
  591 : 1;
  592 : 1;
  593 : 0;
  594 : 0;
  595 : 0;
  596 : 0;
  597 : 0;
  598 : 1;
  599 : 0;
  600 : 0;
  601 : 0;
  602 : 1;
  603 : 1;
  604 : 0;
  605 : 0;
  606 : 1;
  607 : 1;
  608 : 1;
  609 : 1;
  610 : 1;
  611 : 0;
  612 : 1;
  613 : 0;
  614 : 0;
  615 : 0;
  616 : 1;
  617 : 0;
  618 : 1;
  619 : 1;
  620 : 1;
  621 : 1;
  622 : 1;
  623 : 0;
  624 : 1;
  625 : 1;
  626 : 1;
  627 : 0;
  628 : 1;
  629 : 0;
  630 : 0;
  631 : 0;
  632 : 1;
  633 : 1;
  634 : 0;
  635 : 1;
  636 : 0;
  637 : 1;
  638 : 1;
  639 : 1;
  640 : 0;
  641 : 1;
  642 : 0;
  643 : 1;
  644 : 0;
  645 : 0;
  646 : 1;
  647 : 1;
  648 : 1;
  649 : 1;
  650 : 0;
  651 : 0;
  652 : 1;
  653 : 1;
  654 : 1;
  655 : 0;
  656 : 1;
  657 : 1;
  658 : 1;
  659 : 1;
  660 : 1;
  661 : 0;
  662 : 1;
  663 : 1;
  664 : 1;
  665 : 0;
  666 : 0;
  667 : 0;
  668 : 0;
  669 : 1;
  670 : 1;
  671 : 0;
  672 : 0;
  673 : 0;
  674 : 0;
  675 : 0;
  676 : 1;
  677 : 0;
  678 : 1;
  679 : 0;
  680 : 0;
  681 : 1;
  682 : 1;
  683 : 0;
  684 : 0;
  685 : 0;
  686 : 0;
  687 : 1;
  688 : 1;
  689 : 1;
  690 : 1;
  691 : 0;
  692 : 1;
  693 : 1;
  694 : 0;
  695 : 1;
  696 : 0;
  697 : 1;
  698 : 0;
  699 : 0;
  700 : 0;
  701 : 0;
  702 : 1;
  703 : 1;
  704 : 1;
  705 : 0;
  706 : 1;
  707 : 1;
  708 : 0;
  709 : 1;
  710 : 0;
  711 : 0;
  712 : 1;
  713 : 0;
  714 : 1;
  715 : 1;
  716 : 1;
  717 : 0;
  718 : 1;
  719 : 0;
  720 : 1;
  721 : 1;
  722 : 1;
  723 : 1;
  724 : 0;
  725 : 1;
  726 : 0;
  727 : 0;
  728 : 0;
  729 : 0;
  730 : 0;
  731 : 1;
  732 : 0;
  733 : 1;
  734 : 0;
  735 : 1;
  736 : 0;
  737 : 1;
  738 : 0;
  739 : 0;
  740 : 1;
  741 : 1;
  742 : 0;
  743 : 1;
  744 : 1;
  745 : 0;
  746 : 0;
  747 : 0;
  748 : 1;
  749 : 1;
  750 : 0;
  751 : 0;
  752 : 1;
  753 : 1;
  754 : 0;
  755 : 0;
  756 : 1;
  757 : 0;
  758 : 1;
  759 : 1;
  760 : 1;
  761 : 1;
  762 : 0;
  763 : 1;
  764 : 1;
  765 : 0;
  766 : 0;
  767 : 0;
  768 : 1;
  769 : 1;
  770 : 1;
  771 : 1;
  772 : 0;
  773 : 1;
  774 : 0;
  775 : 1;
  776 : 0;
  777 : 0;
  778 : 0;
  779 : 0;
  780 : 1;
  781 : 0;
  782 : 1;
  783 : 0;
  784 : 0;
  785 : 1;
  786 : 1;
  787 : 1;
  788 : 1;
  789 : 1;
  790 : 0;
  791 : 1;
  792 : 1;
  793 : 0;
  794 : 0;
  795 : 0;
  796 : 1;
  797 : 1;
  798 : 0;
  799 : 0;
  800 : 1;
  801 : 0;
  802 : 0;
  803 : 1;
  804 : 1;
  805 : 0;
  806 : 0;
  807 : 0;
  808 : 1;
  809 : 1;
  810 : 0;
  811 : 1;
  812 : 0;
  813 : 0;
  814 : 0;
  815 : 1;
  816 : 0;
  817 : 0;
  818 : 1;
  819 : 1;
  820 : 0;
  821 : 0;
  822 : 0;
  823 : 0;
  824 : 1;
  825 : 1;
  826 : 0;
  827 : 1;
  828 : 0;
  829 : 0;
  830 : 1;
  831 : 0;
  832 : 0;
  833 : 0;
  834 : 1;
  835 : 1;
  836 : 1;
  837 : 0;
  838 : 0;
  839 : 1;
  840 : 1;
  841 : 0;
  842 : 0;
  843 : 0;
  844 : 0;
  845 : 1;
  846 : 0;
  847 : 0;
  848 : 1;
  849 : 0;
  850 : 0;
  851 : 0;
  852 : 1;
  853 : 0;
  854 : 1;
  855 : 0;
  856 : 1;
  857 : 0;
  858 : 0;
  859 : 1;
  860 : 0;
  861 : 1;
  862 : 1;
  863 : 1;
  864 : 0;
  865 : 1;
  866 : 1;
  867 : 1;
  868 : 1;
  869 : 1;
  870 : 0;
  871 : 0;
  872 : 0;
  873 : 1;
  874 : 0;
  875 : 0;
  876 : 1;
  877 : 0;
  878 : 1;
  879 : 0;
  880 : 0;
  881 : 0;
  882 : 1;
  883 : 0;
  884 : 0;
  885 : 0;
  886 : 0;
  887 : 0;
  888 : 0;
  889 : 1;
  890 : 1;
  891 : 1;
  892 : 1;
  893 : 0;
  894 : 1;
  895 : 0;
  896 : 0;
  897 : 0;
  898 : 1;
  899 : 0;
  900 : 1;
  901 : 1;
  902 : 1;
  903 : 0;
  904 : 0;
  905 : 0;
  906 : 1;
  907 : 0;
  908 : 1;
  909 : 1;
  910 : 1;
  911 : 0;
  912 : 1;
  913 : 0;
  914 : 1;
  915 : 0;
  916 : 1;
  917 : 1;
  918 : 0;
  919 : 1;
  920 : 1;
  921 : 1;
  922 : 0;
  923 : 0;
  924 : 1;
  925 : 1;
  926 : 1;
  927 : 0;
  928 : 1;
  929 : 1;
  930 : 0;
  931 : 1;
  932 : 1;
  933 : 1;
  934 : 0;
  935 : 0;
  936 : 0;
  937 : 0;
  938 : 0;
  939 : 1;
  940 : 1;
  941 : 1;
  942 : 0;
  943 : 0;
  944 : 0;
  945 : 0;
  946 : 1;
  947 : 1;
  948 : 0;
  949 : 0;
  950 : 1;
  951 : 1;
  952 : 0;
  953 : 1;
  954 : 1;
  955 : 1;
  956 : 1;
  957 : 0;
  958 : 0;
  959 : 0;
  960 : 1;
  961 : 1;
  962 : 0;
  963 : 0;
  964 : 1;
  965 : 1;
  966 : 1;
  967 : 1;
  968 : 0;
  969 : 0;
  970 : 1;
  971 : 0;
  972 : 0;
  973 : 1;
  974 : 1;
  975 : 0;
  976 : 0;
  977 : 0;
  978 : 1;
  979 : 1;
  980 : 1;
  981 : 0;
  982 : 1;
  983 : 0;
  984 : 1;
  985 : 1;
  986 : 0;
  987 : 1;
  988 : 1;
  989 : 1;
  990 : 1;
  991 : 0;
  992 : 1;
  993 : 0;
  994 : 0;
  995 : 0;
  996 : 0;
  997 : 1;
  998 : 0;
  999 : 1;
  1000 : 1;
  1001 : 1;
  1002 : 1;
  1003 : 1;
  1004 : 1;
  1005 : 0;
  1006 : 1;
  1007 : 0;
  1008 : 1;
  1009 : 1;
  1010 : 1;
  1011 : 0;
  1012 : 0;
  1013 : 0;
  1014 : 1;
  1015 : 0;
  1016 : 1;
  1017 : 1;
  1018 : 1;
  1019 : 1;
  1020 : 1;
  1021 : 0;
  1022 : 1;
  1023 : 1;
  1024 : 1;
  1025 : 1;
  1026 : 0;
  1027 : 1;
  1028 : 1;
  1029 : 1;
  1030 : 0;
  1031 : 1;
  1032 : 1;
  1033 : 0;
  1034 : 1;
  1035 : 0;
  1036 : 0;
  1037 : 1;
  1038 : 0;
  1039 : 0;
  1040 : 0;
  1041 : 1;
  1042 : 1;
  1043 : 1;
  1044 : 1;
  1045 : 1;
  1046 : 1;
  1047 : 0;
  1048 : 1;
  1049 : 1;
  1050 : 1;
  1051 : 1;
  1052 : 1;
  1053 : 1;
  1054 : 0;
  1055 : 1;
  1056 : 1;
  1057 : 1;
  1058 : 0;
  1059 : 0;
  1060 : 0;
  1061 : 1;
  1062 : 1;
  1063 : 0;
  1064 : 1;
  1065 : 0;
  1066 : 1;
  1067 : 1;
  1068 : 1;
  1069 : 0;
  1070 : 1;
  1071 : 1;
  1072 : 0;
  1073 : 0;
  1074 : 0;
  1075 : 1;
  1076 : 0;
  1077 : 0;
  1078 : 0;
  1079 : 0;
  1080 : 1;
  1081 : 0;
  1082 : 1;
  1083 : 0;
  1084 : 1;
  1085 : 1;
  1086 : 1;
  1087 : 0;
  1088 : 0;
  1089 : 1;
  1090 : 0;
  1091 : 0;
  1092 : 0;
  1093 : 0;
  1094 : 0;
  1095 : 0;
  1096 : 1;
  1097 : 0;
  1098 : 0;
  1099 : 0;
  1100 : 1;
  1101 : 0;
  1102 : 1;
  1103 : 1;
  1104 : 1;
  1105 : 1;
  1106 : 0;
  1107 : 0;
  1108 : 1;
  1109 : 0;
  1110 : 0;
  1111 : 0;
  1112 : 0;
  1113 : 1;
  1114 : 1;
  1115 : 1;
  1116 : 0;
  1117 : 1;
  1118 : 1;
  1119 : 1;
  1120 : 0;
  1121 : 1;
  1122 : 1;
  1123 : 1;
  1124 : 0;
  1125 : 1;
  1126 : 1;
  1127 : 1;
  1128 : 0;
  1129 : 0;
  1130 : 1;
  1131 : 1;
  1132 : 0;
  1133 : 1;
  1134 : 1;
  1135 : 0;
  1136 : 1;
  1137 : 1;
  1138 : 1;
  1139 : 0;
  1140 : 1;
  1141 : 1;
  1142 : 1;
  1143 : 0;
  1144 : 0;
  1145 : 1;
  1146 : 1;
  1147 : 0;
  1148 : 1;
  1149 : 0;
  1150 : 0;
  1151 : 1;
END;
